000000000
111111101
111111001
000000000
111111101
000000010
000000110
000000110
000000010
000000101
000001010
111111100
000000101
000000000
111111001
000000011
111111100
111111110
000000000
000000000
111111011
000000000
000000010
000000100
000000000
000001011
111111100
111111000
111111100
000000110
000000111
000000101
111111101
000000011
111110101
000000001
000000001
111111101
000000011
000000001
