111111100
111111011
000000100
111110111
000000101
111111011
000000010
000000011
111111101
000000011
000001000
111111101
000000100
111111100
000000000
111111010
000000101
111111110
111110100
000000101
000000000
000000011
000000000
000000100
000000001
111111110
111111001
000000000
000000000
000000001
000000010
000000010
000000001
000000011
111110001
111111101
000000000
000000000
111111011
000000010
