111111111
111111110
000000101
000000110
000000110
111111111
000000011
000000110
000000010
111111101
000000101
111110010
000000000
000000111
111111001
000000000
000000000
111111101
111111111
111111010
000000111
000000110
000000000
000001000
000000101
111111001
000000000
000000101
111111110
111111010
111111111
111110111
000000010
000000000
111111011
000000000
111110100
000000000
000000000
000000000
