111111110
111111011
000000000
000000001
111110101
000000001
111111001
000000000
000000010
111111000
000000010
111111010
000000110
000000110
000000001
111111011
111111001
111111111
000000000
000000010
000000010
000000110
111111001
111111100
000000100
000001100
111110111
000000100
111111110
000000111
000000110
000000010
000000110
000000000
000000010
000000010
000000000
111110101
000000110
000000000
