111111111
000000000
000000010
000000011
000000000
000000010
111111011
000000100
000000001
111111111
000000010
111111110
000000001
111111100
000000100
000000111
111101111
000000100
111111110
111111011
000000100
000000111
000000001
000000001
000000010
111111111
111111101
111110110
111110101
111111010
000000000
111111110
000000001
000000001
000000010
111111100
000000000
111111101
111111100
000000010
