111111111
000000001
000000111
111111100
000000000
111110100
000000101
000000000
000000100
111111001
000000010
000000011
111111011
000000001
111111111
000000010
000000011
111111011
000000000
000000011
111110101
000000010
111110011
111111110
111111100
000000000
000000011
000000010
111111101
111111110
000010001
000000000
000000011
000000010
111110111
000000011
111111010
111111100
111110101
111111010
