000000100
000000011
111111010
111111001
000000101
111111101
000000110
000000010
000000010
000000001
000000001
000000000
111111100
111111010
111111110
000000111
111110111
000000100
111111111
111111100
000001000
111111111
111111011
111111110
000000100
000000110
111111100
111111101
111111000
111110101
111111110
111111111
000000010
111111110
000001001
111111011
000000010
000000001
111111011
000000110
